4
conv1.weight 27 3dfca450 3e9f28a3 3d8a92ea bef7665c bbe3712d be8e998f be2627cd be8c1e93 3deede0a 3ecdb08a bef8ff72 bd325bd7 be0ca6a7 becd7ae2 bdbe64bd bda75cc8 3eb63415 bea208d7 3d055e80 3f0ab37a be80db04 be819bc3 3ec749f9 3dea897b bdc535db 3e54e796 be24239c
conv1.bias 3 3e3986f6 bea6d5da 3e53997b
conv2.weight 27 3e9af35d 3e2b8d01 3d581224 bf33fbdb 3e6dfdd4 3eadb52f 3e0cf17c 3e8473dc be9df0be bce1440a 3dbf6238 3dc53e0c 3ea72a24 bda8e3a6 bef582ac 3e30edfa be602c41 be90855b be94ac02 3e175b27 3e382126 3f1feadd 3e3c1838 3eeebfcd befa079e bed3ebf9 3e802446
conv2.bias 3 be63d590 3e4fdbee 3dd3ded6
