2
conv.weight 36 bee322d3 be3b6d1d 3ef447a2 bca7198b 3cbd76ce be92a05f 3e307948 3e8d69af 3f113c90 3d867811 3d6e3969 3e8eec8d be2fc2d2 3e8c622b bb0c2e2c be4b561c 3d4fbeb7 bdfd09af bed9a111 be9de33b 3dc5e69d 3dc52aa6 3d78f3e1 3e842589 bdf47d85 3cc0a754 be1dd7b2 3e3099d7 beafcc45 3ec22a65 3cb50ed3 be9806a9 3d75d51c bdf24dcf be7b4d94 3e30bd47
conv.bias 4 3e95dd4a bd636c16 3e1213ab be1e9f1b
